a 49251
. 27636
in 14927
the 10959
on 8089
man 7807
is 7538
and 7381
of 6867
with 6179
woman 3976
, 3963
two 3877
are 3728
to 3129
people 3121
an 2940
at 2939
wearing 2623
young 2280
white 2223
shirt 2129
black 2003
his 1969
while 1947
blue 1871
men 1776
sitting 1743
red 1741
girl 1728
boy 1689
dog 1681
standing 1614
playing 1584
group 1552
street 1445
down 1392
walking 1378
front 1276
her 1263
holding 1237
one 1091
water 1061
three 1055
by 1054
women 987
up 936
green 924
little 915
for 906
child 894
looking 888
as 873
outside 871
large 841
through 813
yellow 781
children 768
brown 766
person 753
hat 728
from 728
ball 726
their 725
into 711
small 671
next 664
other 660
dressed 636
out 633
some 624
over 611
building 603
riding 584
running 581
near 571
jacket 566
around 562
another 562
field 536
sidewalk 534
orange 524
crowd 521
beach 520
stands 498
pink 493
sits 492
jumping 491
behind 489
table 485
grass 468
background 460
snow 459
stand 451
bike 449
city 446
&apos;s 444
girls 441
air 440
player 429
looks 423
top 421
asian 421
wall 417
dogs 406
several 404
that 404
older 402
four 400
off 394
dress 390
park 389
camera 387
talking 382
lady 380
something 380
soccer 375
walks 371
along 370
guitar 367
working 365
boys 364
hair 364
play 363
together 361
food 357
smiling 353
gray 343
game 340
picture 340
has 339
it 333
car 332
plays 331
hand 327
holds 322
bench 314
road 314
him 312
glasses 311
pants 311
old 307
side 305
shorts 304
sit 303
stage 303
walk 302
carrying 300
couple 299
baby 299
them 290
bicycle 287
face 281
&quot; 280
pool 279
male 279
tree 279
race 279
taking 275
rock 273
each 272
doing 267
watching 261
head 261
across 261
guy 260
jeans 259
dirt 259
there 259
area 258
boat 258
day 254
blond 252
jumps 250
back 248
hands 248
ground 246
female 245
room 245
performing 241
baseball 238
suit 237
who 237
eating 236
coat 233
being 233
striped 232
using 229
football 229
band 226
kids 225
watch 225
under 224
many 223
store 222
horse 222
mouth 221
purple 221
ed 221
he 220
sign 219
its 218
long 217
this 216
sand 213
runs 212
tennis 212
reading 210
players 209
sunglasses 208
construction 208
look 208
clothing 203
microphone 202
or 200
mountain 200
toy 198
ocean 198
dark 198
basketball 198
during 197
workers 197
middle 194
watches 194
climbing 193
t-shirt 193
uniform 192
past 191
elderly 190
work 190
restaurant 188
helmet 187
against 187
be 186
train 185
team 185
window 183
dancing 183
rides 181
they 178
posing 178
chair 178
about 177
re@@ 176
covered 175
trees 174
wooden 173
five 173
having 173
waiting 173
outdoor 173
all 172
line 170
very 169
swimming 169
getting 168
floor 166
bag 166
trying 165
shirts 164
ice 164
skateboard 163
colorful 163
busy 160
singing 159
fence 159
jump 157
-@@ 156
cart 154
s@@ 154
light 153
book 151
laying 150
hill 150
inside 150
hats 149
market 149
high 148
truck 148
tan 147
bright 147
ing 147
ride 146
others 145
kitchen 145
cap 145
cellphone 144
e@@ 144
path 144
grassy 144
big 143
someone 143
making 142
night 141
bus 141
clothes 141
takes 140
motorcycle 140
y 139
body 139
umbrella 139
towards 138
full 138
outfit 138
track 137
es 137
enjoying 137
brick 137
metal 135
river 134
s 134
swing 134
piece 133
paper 133
ers 133
ready 133
board 132
she 131
tank 129
shop 128
open 126
colored 126
a@@ 126
worker 126
sweater 126
trick 125
painting 124
in@@ 124
above 124
lake 123
adults 122
going 122
w@@ 121
music 121
hard 120
vest 120
snowy 120
dance 120
house 119
surrounded 119
wave 119
run 119
shopping 119
onto 119
stone 118
stick 118
uniforms 118
outdoors 117
crowded 117
phone 116
photo 116
backpack 115
beside 115
smiles 115
gear 115
kid 114
set 114
pole 113
hockey 112
subway 112
african 112
drinking 112
family 111
american 111
bridge 110
flowers 110
toddler 109
guys 108
arms 108
fire 108
gathered 108
event 108
like 107
police 107
hanging 107
lot 107
catch 106
away 106
preparing 105
beautiful 105
o@@ 105
object 103
steps 103
sleeping 103
costume 103
leaning 103
after 102
fishing 102
machine 101
rope 100
fountain 100
plaid 100
bar 100
k@@ 99
shirtless 99
stairs 99
take 98
arm 97
adult 97
ly 96
rocks 96
shoes 96
d 95
ding 94
selling 94
sunny 94
sh@@ 94
graffiti 94
does 93
glass 93
forest 93
setting 92
pose 92
ds 92
ts 92
chairs 92
parade 92
racing 92
tall 91
wood 90
er 90
putting 90
both 90
corner 90
volleyball 90
pushing 89
throwing 89
frisbee 89
2 89
view 89
have 88
slide 88
ladies 88
drink 88
between 88
public 87
laughing 87
short 87
computer 87
ling 86
t 86
instruments 86
flag 86
equipment 86
fish 85
bed 85
couch 85
pictures 85
bikes 85
king 85
plastic 84
cowboy 84
b@@ 84
ramp 84
p@@ 84
yard 84
party 84
which 83
way 83
playground 83
sweatshirt 83
un@@ 83
poses 83
trail 83
woods 83
reads 83
an@@ 83
sun 82
concrete 82
statue 82
d@@ 82
beard 82
dock 81
t@@ 81
midair 81
winter 81
number 80
just 80
skirt 79
seated 79
p 79
pe@@ 79
de@@ 79
distance 78
g@@ 78
attire 77
toward 77
where 77
get 77
what 77
en@@ 77
bags 77
beer 76
works 76
six 76
ting 76
cooking 76
school 76
al@@ 75
vests 75
cutting 75
blond-hair 75
filled 75
rider 75
buildings 74
cross 74
shore 74
left 74
pulling 74
tent 74
mother 73
cream 73
middle-aged 73
ri@@ 73
der 73
station 72
sky 72
skateboarder 72
crossing 72
cliff 72
friends 72
ro@@ 72
st@@ 72
appears 72
edge 71
showing 71
instrument 71
lo@@ 71
spectators 71
mountains 71
i@@ 71
few 71
bearded 70
horses 70
jersey 70
show 70
cars 70
l 70
y@@ 69
art 69
nearby 69
right 69
ps 69
ti@@ 69
di@@ 69
scarf 69
performs 69
lined 69
dresses 69
make 69
court 69
driving 68
grill 68
concert 68
bowling 68
carries 68
apron 68
net 68
perform 68
m 68
k 68
box 68
snowboarder 68
fruit 67
time 67
arts 67
m@@ 67
leaves 67
painted 66
structure 66
coffee 66
parked 66
vendor 66
flower 66
various 66
cigarette 66
boots 66
students 66
cup 65
vehicle 65
gentleman 65
goggles 65
younger 65
ar@@ 65
smile 65
shot 65
surfer 65
bottle 64
flying 64
door 64
lit 64
martial 64
drums 64
u@@ 64
talks 64
smoking 64
rain 64
new 63
kicking 63
flags 63
home 63
eyes 63
f@@ 63
bathing 63
no 63
hit 63
suits 63
lying 63
o 63
waves 62
safety 62
rocky 62
paint 62
g 62
swinging 62
coming 62
newspaper 62
jackets 62
rodeo 62
prepares 62
uses 62
cake 61
conversation 61
ba@@ 61
la@@ 61
gather 61
different 61
parking 61
bucket 61
practicing 61
costumes 61
gloves 61
bu@@ 61
si@@ 61
indian 61
led 61
ladder 60
cleaning 60
bunch 60
scene 60
competition 60
son 60
ks 60
roof 60
listening 60
hold 60
cement 60
bull 60
tie 59
wet 59
blanket 59
ex@@ 59
items 59
onlookers 59
li@@ 59
po@@ 59
skateboarding 59
staring 59
balloon 58
meal 58
pile 58
bikini 58
lawn 58
railing 58
audience 58
bicycles 58
giving 58
can 58
empty 58
3 58
desk 58
leaps 57
pre@@ 57
at@@ 57
ca@@ 57
drinks 57
military 57
gets 57
hot 57
se@@ 56
i 56
sliding 56
gathering 56
bird 56
display 56
sports 56
vegetables 56
pointing 56
class 55
wedding 55
bowl 55
facing 55
stop 55
st 55
c 55
feet 55
streets 55
chasing 55
biker 55
before 55
competing 55
al 54
hand@@ 54
platform 54
huge 54
helmets 54
speaking 54
mask 54
basket 54
silver 53
bride 53
be@@ 53
skier 53
tries 53
lights 53
ted 53
pass 53
match 53
surfing 53
classroom 53
teams 53
purse 52
wait 52
climbs 52
father 52
ra@@ 52
seen 52
alley 52
traditional 52
ski 52
waits 52
sings 52
surfboard 52
place 52
marathon 52
fighting 51
ta@@ 51
do 51
urban 51
ins 51
rail 51
kissing 51
counter 51
screen 51
gold 51
animal 51
er@@ 51
l@@ 51
musicians 51
w 50
stroller 50
break 50
to@@ 50
go 50
same 50
skating 50
females 50
walkway 49
ation 49
site 49
hole 49
shoulder 49
country 49
lap 49
kneeling 49
happy 49
sunset 49
end 49
throw 49
runner 49
th@@ 49
c@@ 49
writing 49
talk 48
waving 48
blowing 48
scooter 48
bald 48
christmas 48
per@@ 48
ping 48
ches 48
h@@ 48
business 48
attempting 48
sort 48
sing 48
violin 48
tables 47
overlooking 47
made 47
course 47
el@@ 47
outfits 47
signs 47
blond-haired 46
bubbles 46
pa@@ 46
says 46
artist 46
ck 46
officer 46
mirror 46
ter 46
giant 45
leans 45
e 45
ker 45
balloons 45
fixing 45
cafe 45
chinese 45
base 45
life 45
close 45
alone 44
cu@@ 44
ating 44
swim 44
faces 44
teenage 44
brunette 44
r@@ 44
helping 44
wheel 44
plate 44
leg 44
con@@ 44
collar 44
le@@ 44
foreground 44
gym 44
over@@ 44
leather 44
ma@@ 44
umbrellas 44
skate 44
van 43
electric 43
mud 43
asleep 43
ons 43
enjoy 43
sticks 43
clown 43
legs 43
brightly 43
meat 43
les 43
ve 43
ded 43
dancers 43
v@@ 43
ad@@ 43
se 43
headphones 43
su@@ 42
washing 42
sandals 42
golf 42
among 42
swings 42
makes 42
officers 42
office 42
diving 42
falling 42
stadium 42
ated 42
passing 42
wears 42
multicolored 41
goal 41
dark-haired 41
le 41
snow@@ 41
co@@ 41
ke 41
dirty 41
church 41
friend 41
toys 41
mar@@ 41
; 41
balls 41
barefoot 41
hiking 41
musical 41
heads 41
ate 41
mo@@ 41
skiing 41
photographer 41
doorway 41
n 41
males 40
singer 40
reaching 40
z@@ 40
drawing 40
row 40
video 40
flip 40
leash 40
laptop 40
accordion 40
throws 40
eat 40
canoe 40
picking 40
traffic 40
below 39
ster 39
fla@@ 39
car@@ 39
b 39
move 39
ble 39
or@@ 39
shallow 39
members 39
relaxing 39
daughter 39
performance 39
digging 39
n@@ 39
well 39
catching 38
ch 38
ched 38
tunnel 38
moving 38
hugging 38
atop 38
shovel 38
am@@ 38
catches 38
bar@@ 38
gives 38
cat 38
microscope 38
square 38
passes 38
foot 38
sh 38
en 38
us 38
bicyclist 38
tattoo 37
sweeping 37
resting 37
pond 37
prepare 37
lab 37
sleeps 37
et@@ 37
kick 37
ls 37
pro@@ 37
shows 37
el 37
sled 37
garden 37
climb 37
lone 37
paved 37
fun 37
deep 37
bat 37
chef 37
drum 37
robe 37
leaping 37
stunt 37
flies 37
we@@ 36
hose 36
sculpture 36
it@@ 36
individuals 36
ce 36
rolling 36
trunks 36
desert 36
karate 36
wear 36
ring 36
lots 36
ked 36
ders 36
beige 36
hoodie 36
vi@@ 36
splashing 36
upside 36
cold 36
sp@@ 36
conversing 36
ea@@ 36
lea@@ 36
teeth 36
sc@@ 36
coats 36
photograph 36
here 36
cre@@ 35
jogging 35
held 35
et 35
how 35
sk@@ 35
wrestling 35
back@@ 35
customers 35
these 35
low 35
pier 35
telescope 35
closed 35
town 35
formal 35
gun 35
sa@@ 35
points 35
underneath 35
tire 35
block 35
plants 35
sts 35
me@@ 34
local 34
mat 34
ely 34
cane 34
do@@ 34
cyclist 34
opposing 34
themselves 34
project 34
roller 34
without 34
gs 34
shoulders 34
carnival 34
&apos; 34
als 34
cut 34
dances 34
so@@ 34
hiker 34
waters 34
gu@@ 34
pping 34
including 34
on@@ 34
cloth 34
shoe 34
circle 33
tra@@ 33
per 33
crosswalk 33
no@@ 33
tri@@ 33
straw 33
cor@@ 33
crying 33
ved 33
sea@@ 33
pulled 33
hammer 33
infant 33
wooded 33
mural 33
cra@@ 33
dinner 33
fight 33
tricks 33
trampoline 33
makeup 33
matching 33
ves 33
racket 33
bo@@ 33
taken 33
ap@@ 33
produce 33
runners 33
stuffed 32
driver 32
picnic 32
gymnast 32
covering 32
booth 32
rest 32
sewing 32
books 32
ch@@ 32
nose 32
bicyclists 32
athlete 32
ous 32
trash 32
opening 32
hoop 32
che@@ 32
d-@@ 32
4 32
attempts 32
ws 32
ic 32
tu@@ 32
performer 32
surface 32
ic@@ 32
lays 31
boxes 31
blouse 31
himself 31
skis 31
hikers 31
sandy 31
softball 31
chases 31
ying 31
dd@@ 31
cow 31
de 31
lift 31
um@@ 31
goes 31
center 31
sw@@ 31
slope 31
balcony 31
ac@@ 31
teenagers 31
pushes 31
lunch 31
help 31
pedestrians 31
me 31
style 31
third 31
oriental 31
cheerleaders 31
pitcher 31
not 30
staircase 30
puts 30
log 30
seven 30
turn 30
wi@@ 30
indoor 30
head@@ 30
device 30
bent 30
pulls 30
ging 30
ear 30
neck 30
deck 30
speaks 30
kind 30
ined 29
overalls 29
evening 29
ans 29
boats 29
wetsuit 29
sun@@ 29
heavy 29
gentlemen 29
enjoys 29
see 29
swims 29
drives 29
shaking 29
chi@@ 29
round 29
festival 29
grocery 29
fallen 29
marching 29
dancer 29
gate 28
sheet 28
pouring 28
kayak 28
nice 28
jean 28
ped 28
kicks 28
land 28
ship 28
red-haired 28
porch 28
brown-haired 28
puddle 28
ching 28
pot 28
protective 28
lies 28
type 28
stream 28
ter@@ 28
tracks 28
khaki 28
garb 28
fingers 28
waterfall 28
wrapped 28
cloudy 28
op@@ 28
ss 28
hangs 28
dra@@ 28
bri@@ 28
golden 28
mat@@ 28
shaving 28
robes 28
es@@ 28
r 28
foreign 28
ist 28
steep 28
native 28
clear 28
laundry 28
teenager 28
poles 27
sale 27
ledge 27
paddling 27
shoveling 27
cur@@ 27
reaches 27
ming 27
try 27
bread 27
luggage 27
moves 27
cking 27
eye 27
ates 27
blocks 27
red-hair 27
ful 27
saxophone 27
birds 27
man@@ 27
checking 27
opposite 27
ir@@ 27
attached 27
palm 27
backyard 27
sea 27
kes 27
put 27
arena 27
fair 27
par@@ 27
shooting 27
podium 27
soldiers 27
piano 27
colors 27
em@@ 27
ses 27
ge@@ 27
ment 27
airplane 27
part 26
goalie 26
inflatable 26
ery 26
mound 26
clean 26
pped 26
denim 26
curb 26
ger 26
hi@@ 26
du@@ 26
tops 26
ci@@ 26
shed 26
wine 26
tongue 26
bra@@ 26
string 26
wheelchair 26
wa@@ 26
soldier 26
laugh 26
ru@@ 26
balancing 26
windows 26
cones 26
kiss 26
camouflage 26
poster 26
pavement 26
skirts 26
image 26
use 26
polo 26
pipe 26
hula 26
rugby 26
tractor 25
happily 25
courtyard 25
eats 25
seat 25
shade 25
bikers 25
frame 25
swimsuit 25
tools 25
railroad 25
5 25
fall 25
walls 25
com@@ 25
keyboard 25
student 25
juggling 25
stool 25
water@@ 25
ings 25
floating 25
musician 25
id 25
e-@@ 25
buying 25
step 25
york 25
curly 25
laughs 25
sting 25
fresh 25
fast 25
stri@@ 25
fabric 25
raft 25
bl@@ 25
ty 25
fans 25
motorcycles 25
married 25
bottom 25
flight 25
professional 25
riders 25
sell 25
cyclists 25
you 24
bi@@ 24
ler 24
backwards 24
plane 24
color 24
guard 24
pan@@ 24
scaffolding 24
carriage 24
dri@@ 24
cting 24
surf 24
cheering 24
pit 24
plant 24
pri@@ 24
sed 24
multiple 24
bubble 24
floral 24
ters 24
club 24
ms 24
closeup 24
living 24
either 24
acoustic 24
stra@@ 24
inter@@ 24
garbage 24
bucking 24
pair 24
marketplace 24
ity 24
tube 24
fi@@ 24
groom 24
mi@@ 24
appear 24
hurdle 24
socks 24
touching 24
nap 24
spray 24
suspended 24
knee 24
ste@@ 24
ces 24
shown 24
bandanna 24
goods 24
santa 24
pajamas 24
jerseys 24
jo@@ 24
pu@@ 24
ho@@ 24
stove 23
j@@ 23
plaza 23
advertisement 23
kneels 23
sol@@ 23
t-@@ 23
magazine 23
fenced 23
dining 23
raised 23
underwater 23
hood 23
direction 23
escalator 23
climber 23
pi@@ 23
gr@@ 23
animals 23
hooded 23
welding 23
caught 23
min@@ 23
pic@@ 23
ally 23
long-haired 23
te@@ 23
japanese 23
is@@ 23
backpacks 23
serving 23
pin@@ 23
airport 23
des 23
dry 23
aring 23
sheep 23
german 23
paints 23
gra@@ 23
hay 23
om@@ 23
landscape 23
towel 23
sta@@ 23
ears 23
chain 23
bro@@ 23
sporting 23
operating 22
neon 22
read 22
ur@@ 22
grilling 22
things 22
bur@@ 22
shes 22
obstacle 22
vehicles 22
brush 22
summer 22
mom 22
brushing 22
money 22
candy 22
gravel 22
ni@@ 22
gh@@ 22
seems 22
boards 22
ar 22
participating 22
amusement 22
bending 22
action 22
cal 22
individual 22
post 22
he@@ 22
shaped 22
checkered 22
ss@@ 22
thrown 22
! 22
ning 22
can@@ 22
orchestra 22
go@@ 22
teacher 22
referee 22
caucasian 22
decorated 22
ne@@ 22
spi@@ 22
athletic 22
bow 22
sport 22
sted 22
examining 22
il@@ 22
age 22
bmx 22
ropes 21
barbecue 21
atv 21
brea@@ 21
gro@@ 21
map 21
dis@@ 21
crouches 21
tub 21
sweat@@ 21
firefighters 21
bles 21
print 21
pen@@ 21
passengers 21
tw@@ 21
( 21
mu@@ 21
amp 21
rowing 21
benches 21
but@@ 21
peace 21
harness 21
ver@@ 21
ors 21
compete 21
attempt 21
scuba 21
hitting 21
rests 21
turning 21
win@@ 21
cone 21
feeding 21
good 21
pen 21
tre@@ 21
heels 21
cha@@ 21
muddy 21
button 21
hallway 21
only 21
ered 21
wh@@ 21
cked 21
sli@@ 21
practice 21
tourists 21
chest 21
haircut 21
studio 21
presentation 21
photographs 21
sharing 21
sticking 21
t-shirts 21
wagon 21
sets 21
ght 21
opponent 21
racer 21
qu@@ 20
also 20
machinery 20
she@@ 20
fl@@ 20
ol@@ 20
ens 20
ish 20
hall 20
pull 20
snowboard 20
sm@@ 20
garage 20
but 20
cted 20
cleans 20
fruits 20
act 20
) 20
eight 20
tile 20
sandwich 20
jumpsuit 20
bs 20
carpet 20
motocross 20
ats 20
groups 20
stones 20
figure 20
jungle 20
mustache 20
motorcyclist 20
navy 20
we 20
ai@@ 20
snowboarding 20
long-sleeved 20
wire 20
craft 20
bars 20
patio 20
racetrack 20
for@@ 20
rough 20
skateboards 20
y-@@ 20
fly 20
tool 20
sink 20
pos@@ 20
wide 20
policeman 20
br@@ 20
headscarf 20
drummer 20
speech 20
ering 20
bathroom 20
els 20
sco@@ 20
turns 20
bat@@ 20
boun@@ 20
chase 20
hel@@ 20
guitars 20
viewing 20
start 20
est 20
ops 20
model 20
bushes 19
ars 19
beam 19
our 19
snow-covered 19
ber@@ 19
lane 19
squ@@ 19
intersection 19
boardwalk 19
discussion 19
case 19
ceiling 19
h 19
baskets 19
swimmer 19
routine 19
lar 19
fancy 19
bow@@ 19
fe@@ 19
museum 19
observe 19
beverage 19
stopped 19
narrow 19
coach 19
bath 19
half 19
petting 19
tag 19
great 19
indoors 19
shoot 19
cape 19
dune 19
tents 19
apple 19
eling 19
out@@ 19
hillside 19
gre@@ 19
gi@@ 19
dark-skinned 19
slides 19
ahead 19
eastern 19
college 19
neighborhood 19
puck 19
crouching 19
first 19
av@@ 19
tattooed 19
possibly 19
leaving 19
herself 19
smoke 19
cricket 19
trumpet 19
medical 19
met@@ 19
vendors 19
horseback 19
thers 19
ously 19
sells 19
entrance 18
rubber 18
dr@@ 18
flo@@ 18
wing 18
song 18
mixing 18
mall 18
cla@@ 18
folding 18
card 18
tor@@ 18
helps 18
hospital 18
hang 18
container 18
buy 18
fencing 18
clay 18
wheels 18
tro@@ 18
celebrating 18
birthday 18
coun@@ 18
squatting 18
bea@@ 18
ati@@ 18
tur@@ 18
excited 18
py 18
ornate 18
youth 18
uniformed 18
cardboard 18
pieces 18
outstretched 18
protest 18
lay 18
shepherd 18
bottles 18
puppy 18
ines 18
guitarist 18
hoops 18
clo@@ 18
live 18
hugs 18
position 18
army 18
choir 18
funny 18
dishes 18
enterta@@ 18
seats 18
buckets 18
maroon 18
da@@ 18
mostly 18
skates 18
microphones 18
reflective 17
balance 17
ary 17
member 17
sword 17
ges 17
flipping 17
doctor 17
pan 17
stack 17
ribbon 17
cam@@ 17
handstand 17
cuts 17
derby 17
dreadlocks 17
leading 17
apartment 17
bank 17
ies 17
ear@@ 17
il 17
sleeveless 17
backs 17
lan@@ 17
fisherman 17
space 17
ver 17
stroll 17
stretching 17
mobile 17
nets 17
doors 17
rink 17
pick 17
bear 17
sized 17
rural 17
blows 17
spraying 17
har@@ 17
vegetable 17
bling 17
cks 17
firetruck 17
ned 17
cts 17
bowls 17
pine 17
more 17
polka 17
belt 17
pat@@ 17
lines 17
item 17
grinding 17
ce@@ 17
ethnic 17
moment 17
tattoos 17
conference 17
float 17
pl@@ 17
mohawk 17
ns 17
stripes 17
stares 17
ag@@ 17
bel@@ 17
air@@ 17
library 17
got 17
inspecting 17
f 17
top@@ 17
finish 17
calf 17
broom 17
coloring 17
ck@@ 17
smokes 17
heart 17
spinning 17
finger 17
pla@@ 17
gar@@ 17
vers 17
jockey 17
scenery 17
sand@@ 17
furniture 17
hair@@ 17
storefront 17
boxing 17
skaters 17
end@@ 16
tied 16
ets 16
broken 16
factory 16
candles 16
duck 16
approaching 16
intently 16
batter 16
col@@ 16
chefs 16
gas 16
chalk 16
farm 16
spread 16
ju@@ 16
motor@@ 16
crane 16
flip-flops 16
castle 16
parents 16
lin@@ 16
discussing 16
&amp; 16
crew 16
emergency 16
motorbike 16
cle@@ 16
barrel 16
houses 16
cru@@ 16
dish 16
raises 16
fluffy 16
tle 16
horn 16
warm 16
hotel 16
folded 16
balding 16
snack 16
banner 16
ser@@ 16
starting 16
bass 16
computers 16
pizza 16
lamp 16
balances 16
free 16
ent@@ 16
fix 16
nighttime 16
television 16
jewelry 16
kite 16
pe 16
stairway 16
overhead 16
plates 16
im@@ 16
ave 16
dead 16
following 16
fully 16
bun@@ 16
reach 16
ff@@ 16
ys 16
ward 16
turned 16
gymnasium 16
rainy 16
carving 16
pitch 16
sides 16
comfor@@ 16
pigeons 16
sofa 16
shel@@ 16
swe@@ 16
london 16
.@@ 16
lifting 16
objects 16
clad 16
hol@@ 16
tourist 16
surrounding 16
naked 16
0@@ 16
speed 16
listens 16
1 16
moped 16
th 16
shovels 15
hits 15
black@@ 15
3@@ 15
training 15
security 15
trucks 15
engine 15
ten@@ 15
blo@@ 15
elephant 15
odd 15
numerous 15
cli@@ 15
fle@@ 15
flowered 15
unicycle 15
fro@@ 15
up@@ 15
lounging 15
ill 15
directions 15
ties 15
form@@ 15
wed 15
amongst 15
swimmers 15
cap@@ 15
yel@@ 15
control 15
cal@@ 15
redheaded 15
called 15
white-@@ 15
name 15
protesting 15
sters 15
gri@@ 15
participate 15
ner 15
catcher 15
1@@ 15
oms 15
taxi 15
wife 15
branch 15
pottery 15
hun@@ 15
raising 15
por@@ 15
terrain 15
repair 15
wrestle 15
ture 15
shaved 15
necklace 15
downtown 15
teammate 15
come 15
partially 15
keep 15
theater 15
engaged 15
headband 15
observing 15
forward 15
material 15
-up 15
smaller 15
thin 15
blow 15
barber 15
follows 15
aged 15
newborn 15
photos 15
ssed 15
electronic 15
patient 15
fan 15
cameras 15
te 15
ballerina 15
ine 15
present 15
-down 15
fireman 15
ry 15
x 15
village 15
sses 15
liquid 15
&apos;t 15
advertising 15
crosses 15
relax 15
wings 15
papers 15
stru@@ 15
ue 15
ja@@ 15
beneath 15
shades 15
gli@@ 14
rainbow 14
converse 14
shakes 14
whilst 14
binoculars 14
wn 14
gers 14
billboard 14
scra@@ 14
tal@@ 14
steel 14
biking 14
donkey 14
part@@ 14
silly 14
skiers 14
eds 14
repairs 14
caps 14
story 14
job 14
loading 14
dge 14
cook 14
athletes 14
fake 14
hap@@ 14
push 14
shining 14
shops 14
cans 14
carry 14
teaching 14
book@@ 14
trailer 14
cing 14
spon@@ 14
ining 14
my 14
angel 14
weaving 14
scarves 14
casual 14
share 14
tower 14
ages 14
cobblestone 14
ard 14
trunk 14
firemen 14
tan@@ 14
na@@ 14
wading 14
plu@@ 14
calm 14
falls 14
splashes 14
char@@ 14
instru@@ 14
interacting 14
guns 14
straight 14
off@@ 14
gift 14
cards 14
machines 14
fa@@ 14
upon 14
ure 14
receiving 14
hu@@ 14
most 14
peering 14
slightly 14
lit@@ 14
ve@@ 14
hug 14
star 14
crafts 14
lounge 14
her@@ 14
wal@@ 14
airborne 14
pretty 14
guards 14
pillow 14
cool 14
sprinkler 14
passenger 14
photographed 14
stic 14
glove 14
tex@@ 14
leads 14
aisle 14
tow@@ 14
mer@@ 14
camel 14
rollerblades 14
bla@@ 14
races 14
corn 14
world 14
homeless 14
performers 14
grand@@ 14
admiring 14
observes 13
spotted 13
studying 13
tropical 13
eye@@ 13
four@@ 13
paddles 13
tending 13
dusk 13
wr@@ 13
knit 13
ig@@ 13
saw 13
chainsaw 13
check 13
pit@@ 13
colle@@ 13
laptops 13
customer 13
messy 13
carts 13
wheelbarrow 13
nature 13
tail 13
gging 13
landing 13
wor@@ 13
ge 13
spoon 13
waterway 13
tires 13
science 13
order 13
ction 13
oven 13
ze 13
iner 13
high-@@ 13
burgundy 13
dro@@ 13
sau@@ 13
coaster 13
examines 13
debris 13
farmer 13
eggs 13
let 13
bin 13
praying 13
ple@@ 13
rod 13
dough 13
skater 13
sal@@ 13
pur@@ 13
sack 13
been 13
ke@@ 13
co 13
flips 13
dol@@ 13
attention 13
lu@@ 13
autumn 13
hum@@ 13
mid 13
drill 13
was 13
gged 13
flute 13
if 13
ced 13
stomach 13
form 13
filling 13
rows 13
places 13
target 13
ator 13
dad 13
bystanders 13
consisting 13
modern 13
assi@@ 13
care 13
cups 13
checks 13
entering 13
run@@ 13
groceries 13
greyhound 13
telephone 13
dding 13
fli@@ 13
2@@ 13
barrier 13
waterfront 13
cro@@ 13
official 13
comes 13
ceremony 13
meeting 13
similar 13
paddle 13
dimly 13
cheer 13
bleachers 13
8 13
overweight 13
tea 13
sailing 13
tes 13
keys 13
pes 13
browsing 13
headed 13
bare 13
sneakers 13
tion 13
lead 13
gestures 13
lacrosse 13
tr@@ 12
ballet 12
ence 12
kno@@ 12
wild 12
ou@@ 12
foot@@ 12
bamboo 12
bricks 12
pigtails 12
scooters 12
onal 12
teen 12
paperwork 12
iron 12
lers 12
hur@@ 12
chicken 12
load 12
give 12
boulder 12
doll 12
presenting 12
wires 12
rickshaw 12
thumbs 12
clapping 12
cool@@ 12
vil 12
cello 12
ian 12
exhibit 12
teal 12
covers 12
heading 12
puppies 12
diver 12
gymnastics 12
barri@@ 12
bor@@ 12
tee 12
shadows 12
tired 12
screaming 12
cooks 12
merchandise 12
far 12
fri@@ 12
show@@ 12
ul@@ 12
countryside 12
blankets 12
mes 12
texas 12
newly 12
seem 12
touches 12
games 12
highway 12
pack 12
beanie 12
cowboys 12
ized 12
bite 12
ical 12
work@@ 12
dust 12
shoppers 12
repairing 12
dering 12
placing 12
tray 12
bagpipes 12
wares 12
alleyway 12
organ@@ 12
handing 12
visiting 12
patterned 12
tv 12
knife 12
spanish 12
stare 12
listen 12
deli@@ 12
bloc@@ 12
drive 12
serves 12
wrap 12
still 12
pillows 12
ite 12
rollerblading 12
inspects 12
stops 12
suitcase 12
ger@@ 12
fol@@ 12
let@@ 12
long-sleeve 12
ban@@ 12
lifted 12
sweeps 12
newspapers 12
sele@@ 12
complete 12
tossing 12
forehead 12
so 12
sail@@ 12
tackle 12
kers 12
vie@@ 12
olympics 12
atta@@ 12
movie 12
street@@ 12
lecture 12
exercise 12
ral 12
knees 12
attending 12
monument 12
biting 12
tape 12
stat@@ 12
ct 12
beverages 12
wheelie 12
6 12
applying 12
umpire 12
juice 12
shirted 12
yoga 12
wrestler 12
kayaks 12
snowsuit 12
play@@ 11
pow@@ 11
artwork 11
wind@@ 11
patch 11
camping 11
trip 11
picks 11
lighted 11
fire@@ 11
magazines 11
wea@@ 11
regi@@ 11
ills 11
ven 11
sto@@ 11
fashioned 11
ky 11
gg@@ 11
cheek 11
fre@@ 11
hut 11
ka@@ 11
suspenders 11
learning 11
sle@@ 11
pilot 11
stea@@ 11
medi@@ 11
shoreline 11
wning 11
dusty 11
late 11
soda 11
coo@@ 11
sn@@ 11
traveling 11
ph@@ 11
underwear 11
chan@@ 11
gol@@ 11
john 11
placed 11
rub@@ 11
burning 11
injured 11
arcade 11
adjusting 11
maneu@@ 11
range 11
tin@@ 11
formation 11
ways 11
banjo 11
african-american 11
rapids 11
ponytail 11
larger 11
firefighter 11
arch 11
logs 11
chatting 11
carefully 11
jet 11
graph@@ 11
chess 11
dj 11
pon@@ 11
washer 11
lips 11
kayaking 11
china 11
bon@@ 11
teens 11
war@@ 11
tiny 11
ind@@ 11
wel@@ 11
cloth@@ 11
printed 11
rollerskating 11
backdrop 11
swimsuits 11
strange 11
ils 11
played 11
tricycle 11
laundromat 11
ang@@ 11
don@@ 11
dire@@ 11
creek 11
fr@@ 11
auditorium 11
location 11
sunlight 11
loom 11
speak 11
ately 11
bit 11
record 11
department 11
mid-@@ 11
ant 11
rice 11
posed 11
gathers 11
poor 11
khakis 11
ent 11
dles 11
ations 11
weather 11
floats 11
thin@@ 11
leaf 11
finished 11
parachute 11
east 11
ily 11
yarn 11
cycling 11
motorcyclists 11
practices 11
watched 11
turquoise 11
hal@@ 11
descent 11
sub@@ 11
venue 11
fer@@ 11
dives 11
opens 11
black-haired 11
company 11
bly 11
sem@@ 11
planting 11
ddle 11
passersby 11
crouched 11
mug 11
scouts 11
cat@@ 11
cr@@ 11
salon 11
zes 11
viol@@ 11
visible 11
tights 11
snowshoes 11
stoc@@ 11
lifts 11
unk 11
cage 11
low@@ 11
playfully 11
mower 11
enthusia@@ 11
tackling 11
kings 11
the@@ 11
recei@@ 11
str@@ 11
involved 11
dot 11
recl@@ 11
roun@@ 11
rally 11
nail 11
kit@@ 11
able 11
meet 11
point 11
mil@@ 11
done 11
motorized 11
ics 11
crossed 11
couples 11
celebration 11
surgery 11
trolley 11
supplies 11
fashion 11
closely 11
defen@@ 11
drawn 11
ny 11
focused 11
torch 11
2012 11
slo@@ 10
ber 10
toddlers 10
ple 10
rooftop 10
frozen 10
march 10
thing 10
tribal 10
shar@@ 10
nurses 10
spar@@ 10
helicopter 10
hea@@ 10
ski@@ 10
handrail 10
-like 10
mexican 10
ong 10
thumb 10
smo@@ 10
bre@@ 10
maintenance 10
shoe@@ 10
tch 10
trashcan 10
branches 10
washes 10
sur@@ 10
appar@@ 10
leap 10
stilts 10
sive 10
monitor 10
belts 10
demonstr@@ 10
pins 10
walked 10
super@@ 10
creating 10
sons 10
ele@@ 10
quickly 10
stepping 10
chopping 10
rou@@ 10
experiment 10
ctor 10
located 10
dy 10
fac@@ 10
asia 10
serve 10
multi@@ 10
stac@@ 10
racers 10
stor@@ 10
morning 10
coa@@ 10
ples 10
cri@@ 10
wer 10
jack@@ 10
silhouette 10
nu@@ 10
earphones 10
sprayed 10
roadside 10
furry 10
dar@@ 10
hiding 10
lem@@ 10
brother 10
goat 10
ad 10
mop 10
past@@ 10
lens 10
pots 10
driveway 10
cs 10
stu@@ 10
oning 10
emer@@ 10
rafting 10
displays 10
pin 10
sculp@@ 10
quarterback 10
gaze 10
twir@@ 10
scaffold 10
chalkboard 10
portrait 10
whom 10
storm 10
excit@@ 10
blood 10
cel@@ 10
involving 10
pads 10
va@@ 10
gy@@ 10
ards 10
speaker 10
cop 10
decorative 10
stroke 10
transportation 10
canvas 10
laden 10
america 10
activity 10
denti@@ 10
la 10
side@@ 10
contraption 10
facility 10
upward 10
shape 10
le-@@ 10
workshop 10
ill@@ 10
workout 10
leotard 10
juggles 10
hotdog 10
link 10
fur 10
lobby 10
peeking 10
fair@@ 10
tain 10
finishing 10
headdress 10
gazes 10
dal 10
casually 10
dies 10
haired 10
apart 10
laun@@ 10
oranges 10
floo@@ 10
ants 10
9@@ 10
cher 10
process 10
fu@@ 10
single 10
bouquet 10
asians 10
incline 10
oc@@ 10
row@@ 10
gallery 10
collared 10
gray-haired 10
# 10
displaying 10
approaches 10
scre@@ 10
cute 10
adv@@ 10
hike 10
stic@@ 10
leggings 10
os 10
amidst 10
valley 10
kn@@ 10
touch 10
pol@@ 10
will 10
as@@ 10
para@@ 10
button@@ 10
ow@@ 10
med 10
ili@@ 10
sideways 10
embracing 10
ga@@ 10
cheese 10
oned 10
numbers 10
ol 10
surfs 10
celebrate 10
shing 10
products 10
dun@@ 10
lighting 10
cover 10
blazer 10
decor@@ 10
second 10
lion 9
sprink@@ 9
road@@ 9
gazing 9
almost 9
-colored 9
dive 9
bends 9
oper@@ 9
conta@@ 9
classic 9
appli@@ 9
stoop 9
lou@@ 9
iling 9
wheeler 9
cast 9
types 9
ands 9
strolls 9
decorations 9
kilt 9
jogs 9
tel@@ 9
paint@@ 9
pale 9
operates 9
elmo 9
hills 9
employees 9
aprons 9
fen@@ 9
service 9
highchair 9
stall 9
camp 9
bal@@ 9
adjusts 9
booths 9
ents 9
farmers 9
gle 9
nic@@ 9
section 9
reflection 9
mon@@ 9
task 9
cab@@ 9
boarding 9
son@@ 9
foliage 9
bicycling 9
sion 9
pathway 9
gardening 9
painter 9
horizon 9
clouds 9
sniffing 9
acting 9
joy 9
tiled 9
pet 9
breakdancing 9
sparring 9
attractive 9
upset 9
scar@@ 9
ca 9
raincoat 9
fier 9
fore@@ 9
french 9
gradu@@ 9
sym@@ 9
brass 9
strapped 9
league 9
tags 9
grabbing 9
design 9
containing 9
hor@@ 9
handle 9
uring 9
cab 9
cellphones 9
chers 9
jeep 9
green@@ 9
pinata 9
explor@@ 9
concentr@@ 9
sorting 9
sure 9
mark 9
fin@@ 9
draw 9
mechan@@ 9
bouncing 9
brushes 9
pumpkin 9
wind 9
tted 9
tripod 9
shiny 9
wait@@ 9
scenic 9
pencil 9
ged 9
chocolate 9
ance 9
k-@@ 9
checkers 9
fishes 9
featuring 9
sawing 9
even 9
odles 9
handed 9
hind 9
wn@@ 9
butterfly 9
tournament 9
gesturing 9
really 9
beret 9
crowds 9
treat 9
dragging 9
dumpster 9
fell 9
interesting 9
bul@@ 9
drib@@ 9
motion 9
built 9
weigh@@ 9
peer 9
crates 9
ham@@ 9
chewing 9
ty@@ 9
body@@ 9
blue-@@ 9
photograph@@ 9
soap 9
than 9
arm@@ 9
displayed 9
atm 9
sledding 9
kee@@ 9
vely 9
chopsticks 9
news 9
monkey 9
cer@@ 9
oping 9
relea@@ 9
menu 9
jumped 9
diner 9
ticket 9
icy 9
images 9
dan@@ 9
short-haired 9
sad 9
writes 9
rings 9
din@@ 9
stump 9
bath@@ 9
known 9
stance 9
curly-haired 9
circular 9
turban 9
ently 9
cloud 9
potato 9
designs 9
pattern 9
go-@@ 9
two-@@ 9
ducks 9
pain 9
muzzle 9
afternoon 9
grabs 9
motor 9
ran@@ 9
ara@@ 9
tight 9
au@@ 9
sprin@@ 9
belongings 9
hudd@@ 9
trench 9
love 9
4@@ 9
stacked 9
tun@@ 9
parasailing 9
ki@@ 9
cleaner 9
tips 9
sha@@ 9
muzzled 9
olympic 9
sty@@ 9
begins 9
vo@@ 9
ten 9
5@@ 9
protesters 9
boxer 9
unique 9
heavily 9
jumper 9
ght@@ 9
wig 9
score 9
cti@@ 9
riot 9
rifle 9
recording 9
ement 9
power 9
bathtub 9
digital 9
act@@ 9
exten@@ 9
canadian 9
am 8
packing 8
barefooted 8
illing 8
ths 8
down@@ 8
0 8
much 8
too 8
forested 8
arri@@ 8
communic@@ 8
kie 8
fat 8
scrubs 8
thered 8
napping 8
lin 8
darkened 8
positi@@ 8
sen@@ 8
hou@@ 8
free@@ 8
teammates 8
fun@@ 8
knee-@@ 8
brief@@ 8
somewhere 8
strolling 8
cries 8
surgical 8
spins 8
plain 8
had 8
sear@@ 8
buil@@ 8
til@@ 8
skills 8
redhead 8
transit 8
amount 8
shi@@ 8
vending 8
labeled 8
cluttered 8
hammock 8
shaggy 8
masks 8
shelf 8
splashed 8
moo@@ 8
waiter 8
staff 8
stuff 8
spe@@ 8
parent 8
stuck 8
mic 8
companion 8
stretches 8
raining 8
ston@@ 8
hawaiian 8
hau@@ 8
pr@@ 8
arr@@ 8
loo@@ 8
pper 8
hydrant 8
campfire 8
slee@@ 8
draped 8
ffs 8
lowing 8
spot 8
fil@@ 8
ha@@ 8
shadow 8
midst 8
synchronized 8
skinny 8
casino 8
squeezing 8
suit@@ 8
cases 8
mix@@ 8
say 8
cherry 8
rug 8
ppy 8
sof@@ 8
underground 8
unhappy 8
protect 8
flannel 8
medium 8
downhill 8
and@@ 8
stry 8
variety 8
projector 8
shy 8
won@@ 8
punch 8
purses 8
toil@@ 8
package 8
qui@@ 8
hit@@ 8
mix 8
sailboat 8
accident 8
uts 8
artists 8
signing 8
gen@@ 8
lay@@ 8
spark@@ 8
candle 8
times 8
travel 8
ok 8
tered 8
stream@@ 8
spir@@ 8
wheeled 8
directing 8
lively 8
rab@@ 8
halloween 8
fountains 8
ior 8
u 8
grou@@ 8
pocket 8
buried 8
waist 8
because 8
conver@@ 8
banners 8
cheerleading 8
mess@@ 8
congreg@@ 8
canoes 8
vac@@ 8
gown 8
musta@@ 8
bundle 8
stringed 8
mess 8
ly-@@ 8
judges 8
foam 8
retrie@@ 8
ving 8
babies 8
easel 8
beads 8
peers 8
filming 8
walmart 8
harmonica 8
crayons 8
monopoly 8
skies 8
unusual 8
ess 8
p-@@ 8
rock@@ 8
sil@@ 8
warehouse 8
mb@@ 8
photographers 8
izing 8
lanterns 8
daytime 8
cker 8
tying 8
bridesmaids 8
must@@ 8
laboratory 8
angle 8
completed 8
pt 8
gla@@ 8
lon@@ 8
sprays 8
industrial 8
european 8
camels 8
chis@@ 8
homemade 8
vintage 8
when 8
stre@@ 8
pours 8
spring 8
conductor 8
win 8
notebook 8
muscular 8
mixer 8
nee@@ 8
batman 8
grand 8
dal@@ 8
ob@@ 8
remo@@ 8
roller-@@ 8
looked 8
tackled 8
hardwood 8
establishment 8
spect 8
abandoned 8
clowns 8
columns 8
ach 8
trains 8
state 8
foods 8
speci@@ 8
peac@@ 8
tuxe@@ 8
gesture 8
product 8
kisses 8
vic@@ 8
india 8
grab 8
hammering 8
commercial 8
kaya@@ 8
11 8
thou@@ 8
speeding 8
uni@@ 8
notes 8
employee 8
deer 8
ise 8
bedroom 8
figures 8
tug-of-war 8
spotlight 8
every@@ 8
break@@ 8
tal 8
acrobatic 8
deci@@ 8
nails 8
antly 8
aquarium 8
toothbrush 8
draws 8
ind 8
crow@@ 8
tour 8
packed 8
tic 8
religious 8
bartender 8
fo@@ 8
crashing 8
poli@@ 8
create 8
waterskiing 8
ram@@ 8
war 8
destination 8
- 8
doesn 8
fields 8
followed 8
jockeys 8
itive 8
loaded 8
murky 8
victory 8
pay 8
navigates 8
carrier 8
egg 8
canal 8
cigar 8
histor@@ 8
human 8
graffiti@@ 8
int 8
europe 8
finger@@ 8
series 8
obser@@ 8
op 8
tro 7
slacks 7
husband 7
mcdonald 7
shiel@@ 7
hotdogs 7
ascen@@ 7
though 7
supermarket 7
meadow 7
crops 7
main 7
railings 7
some@@ 7
ddles 7
tubes 7
rustic 7
starring 7
frying 7
woodland 7
pony 7
barbecu@@ 7
ols 7
adorned 7
workman 7
completing 7
trophy 7
nude 7
mouths 7
written 7
may 7
bush 7
fork 7
complex 7
-sized 7
ures 7
squir@@ 7
mers 7
lush 7
stores 7
puppet 7
visor 7
cotton 7
find 7
mitt 7
ound 7
feather 7
ones 7
marble 7
facial 7
shift 7
irs 7
intervie@@ 7
trotting 7
melon 7
thick 7
-looking 7
mascot 7
hoe 7
ung 7
fog 7
rest@@ 7
patrons 7
snacks 7
vering 7
prints 7
beating 7
resort 7
dum@@ 7
gui@@ 7
own 7
mowing 7
pee@@ 7
desks 7
crawls 7
earth 7
ggling 7
legged 7
videota@@ 7
elder 7
ition 7
ators 7
policemen 7
ssion 7
conducting 7
purchase 7
ingredients 7
tracksuit 7
nun 7
sked 7
radio 7
9 7
pea@@ 7
dryer 7
skyline 7
wood@@ 7
pie 7
farm@@ 7
shine 7
aving 7
hula-@@ 7
mes@@ 7
refle@@ 7
environment 7
mountainous 7
divers 7
zone 7
pointed 7
jenga 7
cul@@ 7
ker@@ 7
level 7
sit@@ 7
call 7
laid 7
roller@@ 7
separate 7
berry 7
measuring 7
pans 7
beat 7
pad 7
colorfully 7
rugs 7
support 7
collie 7
inging 7
foggy 7
vacuum 7
stripe 7
beers 7
cally 7
picket 7
demonstration 7
bongo 7
fuzzy 7
ctions 7
dir@@ 7
pirate 7
ack 7
cheerleader 7
contro@@ 7
advertisements 7
were 7
shawl 7
die 7
watermelons 7
school@@ 7
ends 7
pack@@ 7
aid 7
presents 7
illuminated 7
shower 7
blower 7
snor@@ 7
buffet 7
punching 7
peaks 7
social 7
parachu@@ 7
maybe 7
contest 7
der@@ 7
bra 7
turkey 7
eled 7
zi@@ 7
press@@ 7
hop@@ 7
pigeon 7
casting 7
gal@@ 7
discuss 7
cigarettes 7
usa 7
bounds 7
box@@ 7
rolls 7
electri@@ 7
cin@@ 7
cameraman 7
harbor 7
bananas 7
mul@@ 7
guide 7
tarp 7
begin 7
monk 7
life@@ 7
pop 7
crosscountry 7
rise 7
gy 7
squats 7
gor@@ 7
aqua 7
newlywed 7
warming 7
arrow 7
arti@@ 7
ments 7
marked 7
alli@@ 7
barrels 7
cit@@ 7
surfers 7
seafood 7
fying 7
barely 7
treadmill 7
ace 7
bits 7
sold 7
ste 7
s-@@ 7
dyed 7
land@@ 7
sca@@ 7
ab@@ 7
exercising 7
leopard 7
rafts 7
sin@@ 7
activities 7
logo 7
ingly 7
monitors 7
bron@@ 7
temple 7
rails 7
oil 7
flock 7
battle 7
embra@@ 7
silhouetted 7
cave 7
chased 7
quet 7
reception 7
hispanic 7
indi@@ 7
sl@@ 7
deli 7
fedora 7
quiet 7
bows 7
wash 7
tack@@ 7
vibrant 7
daily 7
examine 7
ff 7
named 7
ese 7
fetch 7
ail 7
plan@@ 7
backseat 7
entertain 7
seating 7
dinosaur 7
strings 7
cannon 7
elementary 7
wilderness 7
accompanied 7
return 7
greyhounds 7
tutu 7
que@@ 7
shoo@@ 7
trans@@ 7
marker 7
? 7
semi-@@ 7
exiting 7
pops 7
dly 7
on-@@ 7
glo@@ 7
character 7
ites 7
hear@@ 7
topless 7
sunbathing 7
ser 7
mounted 7
plea@@ 7
fill 7
fet@@ 7
wil@@ 7
disc 7
gry 7
opy 7
sail 7
fireworks 7
tress 7
occu@@ 7
chil@@ 7
grinds 7
vaul@@ 7
typing 7
dotted 7
licking 7
british 7
fron@@ 7
striking 7
tiger 7
poodle 7
broad 7
skydiving 7
celebr@@ 7
medieval 7
festi@@ 7
ically 7
sac@@ 7
ales 7
framed 7
nine 7
drying 7
chin 7
dit@@ 7
await 7
colli@@ 7
pou@@ 7
ultimate 7
year 7
lands 7
armo@@ 7
designed 7
confu@@ 7
characters 7
pyramid 7
vacuuming 7
sleeves 7
necklaces 7
x@@ 7
ordering 7
styli@@ 7
xe 7
tured 7
7 7
blurred 7
8@@ 7
dre@@ 7
ads 7
lining 7
compet@@ 7
xylophone 7
amid 7
orn@@ 7
holi@@ 7
wrestlers 7
scientist 7
doctors 7
dolls 7
travels 7
sel 7
speeds 7
sidelines 7
rollerskates 7
snowboards 7
bend 7
fiel@@ 7
fellow 7
dec@@ 7
prepared 7
6@@ 7
profession@@ 7
cover@@ 7
confetti 7
upwards 7
sculptures 7
hoo@@ 7
defender 7
pul@@ 6
ley 6
system 6
dered 6
bund@@ 6
clarin@@ 6
seesa@@ 6
olive 6
climbers 6
soars 6
trave@@ 6
amu@@ 6
ath 6
shake 6
rubs 6
jave@@ 6
assembl@@ 6
feathered 6
spatula 6
val 6
cardigan 6
scooping 6
gap 6
muslim 6
elevated 6
coast 6
enter 6
slopes 6
canyon 6
ight 6
clu@@ 6
zoo 6
prin@@ 6
cess 6
sec@@ 6
bot@@ 6
toms 6
cop@@ 6
watering 6
da 6
drum@@ 6
probably 6
terrier 6
dragon 6
rush 6
weapon 6
cart@@ 6
pets 6
maj@@ 6
spots 6
checked 6
dded 6
grills 6
elaborate 6
cher@@ 6
gin@@ 6
hour 6
propped 6
expanse 6
exper@@ 6
stirring 6
miniature 6
off-camera 6
favorite 6
waterskier 6
heavyset 6
tends 6
talent 6
evil 6
fer 6
ther 6
fam@@ 6
nap@@ 6
flat 6
craw@@ 6
atten@@ 6
wra@@ 6
teddy 6
hook 6
sunshine 6
swords 6
tomatoes 6
pipes 6
raking 6
stati@@ 6
onary 6
scaling 6
red-@@ 6
rimmed 6
goatee 6
paci@@ 6
lime 6
stunts 6
less 6
exhib@@ 6
ner@@ 6
mass@@ 6
mates 6
within 6
wineglasses 6
gger 6
relaxes 6
eks 6
stretched 6
strike 6
oming 6
infla@@ 6
fy 6
whis@@ 6
ravine 6
tly 6
surf@@ 6
boarder 6
crash 6
flu@@ 6
information 6
woven 6
length 6
sel@@ 6
dots 6
renaissance 6
gues 6
skull 6
ef 6
questi@@ 6
competit@@ 6
strollers 6
lanes 6
snowball 6
efs 6
volunte@@ 6
anti@@ 6
submer@@ 6
arrangement 6
sy 6
nightclub 6
campers 6
domin@@ 6
beg@@ 6
inning 6
tablecloth 6
flowery 6
knitting 6
pitching 6
personnel 6
tomat@@ 6
riverbank 6
shingles 6
words 6
expression 6
pillar 6
curi@@ 6
merry-go-round 6
grasping 6
raise 6
fort 6
zing 6
f-@@ 6
occur@@ 6
shorter 6
clap 6
mouse 6
texting 6
roll 6
girl@@ 6
rack 6
plank 6
overlook 6
moun@@ 6
sample 6
licks 6
razor 6
socializing 6
recor@@ 6
ya@@ 6
pushed 6
professor 6
sno@@ 6
citizens 6
instal@@ 6
fresh@@ 6
tor 6
desc@@ 6
crate 6
en-@@ 6
identical 6
fts 6
ant@@ 6
lovely 6
tree-lined 6
mountaintop 6
business@@ 6
rea@@ 6
noses 6
damaged 6
upright 6
face-@@ 6
dropping 6
spla@@ 6
glacier 6
handbag 6
relay 6
mittens 6
ti 6
warm@@ 6
cent@@ 6
badge 6
wraps 6
pil@@ 6
spo@@ 6
soup 6
pass@@ 6
liquor 6
sty 6
pid@@ 6
vis@@ 6
harvesting 6
operated 6
superman 6
scrat@@ 6
er-@@ 6
tau@@ 6
scape 6
whistle 6
flames 6
magni@@ 6
jewish 6
cer 6
those 6
rain@@ 6
dump 6
pelling 6
gloved 6
poun@@ 6
rag 6
day@@ 6
appe@@ 6
ess@@ 6
hunched 6
sleep 6
open-@@ 6
ump 6
arch@@ 6
cats 6
ened 6
dou@@ 6
soa@@ 6
squad 6
somebody 6
crown 6
microscopes 6
sundress 6
nati@@ 6
shouting 6
rolled 6
devices 6
sooners 6
progress 6
column 6
main@@ 6
voc@@ 6
circus 6
pra@@ 6
lipstick 6
clothed 6
connected 6
ggle 6
used 6
afri@@ 6
dos 6
hip@@ 6
quad 6
seattle 6
fish@@ 6
lie 6
ribbons 6
re-@@ 6
stars 6
conte@@ 6
piles 6
pet@@ 6
ceremonial 6
handheld 6
lar@@ 6
excitedly 6
scent 6
camp@@ 6
illed 6
walkers 6
cou@@ 6
features 6
ie 6
bunny 6
ck-@@ 6
stair 6
constructed 6
hon@@ 6
sleeve 6
follow 6
unloading 6
floors 6
ep@@ 6
oun@@ 6
one-@@ 6
ffy 6
jumpsuits 6
bill@@ 6
dark@@ 6
alco@@ 6
inclu@@ 6
crafting 6
util@@ 6
hearts 6
ond 6
thre@@ 6
dom@@ 6
veget@@ 6
wheelchairs 6
lun@@ 6
skateboarders 6
tails 6
band@@ 6
stride 6
special 6
mature 6
popcorn 6
sprinklers 6
legos 6
completely 6
toe 6
lower 6
waterside 6
kiosk 6
boogie 6
portable 6
well-dressed 6
je@@ 6
cash 6
fit 6
dressing 6
test 6
semi 6
ised 6
creates 6
10 6
tow 6
bikinis 6
nurse 6
anci@@ 6
cocon@@ 6
surge@@ 6
ises 6
sla@@ 6
thy 6
mini@@ 6
scissors 6
tter 6
rusty 6
off-@@ 6
dessert 6
saris 6
miami 6
prou@@ 6
scattered 6
seagulls 6
missing 6
ital@@ 6
gling 6
deserted 6
refer@@ 6
cem@@ 6
checkout 6
fea@@ 6
wet@@ 6
contem@@ 6
kicked 6
prote@@ 6
swan 6
weight 6
strea@@ 6
fashi@@ 6
gerly 6
key 6
tea@@ 6
wit@@ 6
fra@@ 6
parallel 6
mule 6
sor@@ 6
ble@@ 6
sho@@ 6
cathedral 6
carou@@ 6
fixes 6
senior 6
bby 6
pick@@ 6
bulldozer 6
padd@@ 6
dges 6
v 6
political 6
convenience 6
nearly 6
university 6
focus 6
pom@@ 6
clutching 6
gowns 6
congregate 6
crest 6
badminton 6
wards 5
smoo@@ 5
mou@@ 5
ligh@@ 5
assem@@ 5
sage 5
antique 5
ppers 5
zer 5
constru@@ 5
torches 5
oth 5
frog 5
jewel@@ 5
welcome 5
hom@@ 5
ot 5
tar@@ 5
pride 5
take@@ 5
pers 5
rem@@ 5
bin@@ 5
vision 5
consul@@ 5
make@@ 5
sour@@ 5
cheer@@ 5
wake@@ 5
disney 5
ghtly 5
exam@@ 5
island 5
tongs 5
cent 5
verti@@ 5
youn@@ 5
sat@@ 5
angels 5
bru@@ 5
robot 5
ities 5
pauses 5
combat 5
mirro@@ 5
lam@@ 5
ma 5
-covered 5
convention 5
jack 5
ici@@ 5
yo@@ 5
yo 5
zard 5
cav@@ 5
ox@@ 5
un 5
ative 5
sks 5
message 5
challenge 5
popu@@ 5
key@@ 5
mail@@ 5
commun@@ 5
bing 5
cola 5
iz@@ 5
stret@@ 5
pons 5
read@@ 5
tat@@ 5
chat 5
bay 5
star@@ 5
passi@@ 5
physi@@ 5
sk 5
ren@@ 5
wakeboard 5
mannequin 5
balan@@ 5
s. 5
ven@@ 5
cargo 5
memorial 5
adm@@ 5
elev@@ 5
na 5
kick@@ 5
kel 5
stock 5
sou@@ 5
hill@@ 5
parachutes 5
ct@@ 5
asphal@@ 5
shado@@ 5
san 5
whole 5
carri@@ 5
loa@@ 5
oni@@ 5
marches 5
high@@ 5
ep 5
conditions 5
ature 5
ge-@@ 5
cy 5
cler@@ 5
banan@@ 5
tage 5
bag@@ 5
uk@@ 5
our@@ 5
ize 5
tumbling 5
inf@@ 5
punk 5
pai@@ 5
bee 5
cir@@ 5
appro@@ 5
sky-@@ 5
cakes 5
chips 5
00 5
ass@@ 5
hero 5
accep@@ 5
pedestri@@ 5
assor@@ 5
ing@@ 5
latin 5
basket@@ 5
ckets 5
iles 5
saxoph@@ 5
ball@@ 5
film 5
gham 5
tigh@@ 5
proje@@ 5
sim@@ 5
ld 5
snap 5
stro 5
natu@@ 5
woo@@ 5
craft@@ 5
passer@@ 5
attentiv@@ 5
bull@@ 5
massi@@ 5
ado@@ 5
fran@@ 5
blur@@ 5
attendant 5
thor@@ 5
tend 5
tou@@ 5
ade 5
rail@@ 5
descen@@ 5
terminal 5
fisher@@ 5
americ@@ 5
caricature 5
bir@@ 5
strum@@ 5
tail@@ 5
lable 5
ia 5
bac@@ 5
cookies 5
o-@@ 5
bob 5
tambour@@ 5
blu@@ 5
pied 5
alls 5
consi@@ 5
odle 5
lean@@ 5
gum 5
domino@@ 5
arrive 5
poin@@ 5
oo@@ 5
nike 5
assistant 5
store@@ 5
fic@@ 5
rist@@ 5
dle 5
surroun@@ 5
ster@@ 5
mon 5
pro 5
ina 5
cockpit 5
gent 5
skim@@ 5
span@@ 5
dex 5
cau@@ 5
ires 5
rit@@ 5
prom@@ 5
scout 5
husky 5
ore@@ 5
mode@@ 5
stle 5
lanter@@ 5
amish 5
expressions 5
obama 5
thro@@ 5
ssi@@ 5
pub 5
cl@@ 5
manu@@ 5
under@@ 5
lingerie 5
kimonos 5
mis@@ 5
ggles 5
ial 5
tem@@ 5
them@@ 5
phants 5
igh 5
mcdonalds 5
jap@@ 5
im 5
snowboar@@ 5
ket@@ 5
maid 5
dress@@ 5
port 5
emp@@ 5
cowgirl 5
accompan@@ 5
tuni@@ 5
contin@@ 5
intere@@ 5
ipod 5
ility 5
pli@@ 5
mmed 5
navig@@ 5
heal@@ 5
va 5
chant 5
champagne 5
lasso 5
mini-@@ 5
chu@@ 5
law 5
ford 5
mate 5
swim@@ 5
middle-@@ 5
designer 5
bol 5
ird 4
gam@@ 4
propane 4
villa@@ 4
um 4
sky@@ 4
direct@@ 4
phones 4
brochure 4
trem@@ 4
respon@@ 4
volkswagen 4
mascara 4
automobile 4
structures 4
speedo 4
chop@@ 4
bor 4
tru@@ 4
ori@@ 4
mea@@ 4
statues 4
q 4
deere 4
acks 4
ater 4
bud@@ 4
plat@@ 4
bloo@@ 4
sages 4
kin 4
swa@@ 4
kilts 4
steaks 4
ute 4
trombone 4
iller 4
gaphone 4
kitchenaid 4
toast 4
substance 4
intri@@ 4
cupcakes 4
gan 4
tim 4
tons 4
phin 4
liber@@ 4
affe@@ 4
pant 4
fati@@ 4
far@@ 4
tive 4
force 4
tickets 4
washington 4
nes@@ 4
sniff@@ 4
cause 4
participants 4
ka 4
eng@@ 4
piercing 4
lear@@ 4
technique 4
vet@@ 4
bear@@ 4
ey 4
solo 4
ken 4
nant 4
mickey 4
clean@@ 4
fitness 4
self 4
em 4
seagul@@ 4
hen@@ 4
ison 4
z 4
stro@@ 4
fur@@ 4
mounta@@ 4
archite@@ 4
ements 4
ft 4
grin@@ 4
jun@@ 4
sement 4
dim@@ 4
fal@@ 4
lets 4
cupcake 4
crayon 4
ental 4
dia@@ 4
technolo@@ 4
activ@@ 4
gay 4
chic@@ 4
cho@@ 4
ssy 4
eting 4
pal@@ 4
spor@@ 4
pain@@ 4
peop@@ 4
guitari@@ 4
lama 4
long-@@ 4
erial 4
yst@@ 4
vest@@ 4
spea@@ 4
jazz 4
ini@@ 4
south 4
coca-cola 4
equip@@ 4
org@@ 4
bracelet 4
oing 4
adorable 4
nor@@ 4
pati@@ 4
aqu@@ 4
goo@@ 4
nur@@ 4
dor@@ 4
once 4
za@@ 4
western 4
fan@@ 4
rin@@ 4
xi@@ 4
engage 4
oklahoma 4
pun@@ 4
lap@@ 4
repor@@ 4
impressi@@ 4
pher@@ 4
iti@@ 4
kil@@ 4
fic 4
den@@ 4
curr@@ 4
dan 4
roses 4
ken@@ 4
slip 4
drop 4
hy@@ 4
locomoti@@ 4
descend 4
fe 4
prof@@ 4
ctors 4
latin@@ 4
cyc@@ 4
ney 4
exce@@ 4
art@@ 4
ues 4
dation 4
l-@@ 4
lation 4
blan@@ 4
dau@@ 4
ghters 4
compe@@ 4
cob@@ 4
writ@@ 4
bil@@ 4
gig@@ 4
participat@@ 4
seniors 4
tures 4
coca 4
puzzle 4
fluore@@ 4
termin@@ 4
stair@@ 4
all@@ 4
ier 4
dings 4
ine@@ 4
boul@@ 4
pirates 4
note 4
news@@ 4
enjo@@ 4
attraction 4
20@@ 4
som@@ 4
file 4
conce@@ 4
lo 4
union 4
gh 4
bronze 4
yamaha 4
rollerbla@@ 4
frustr@@ 4
buggy 4
ping-pong 4
caf@@ 4
eria 4
lass@@ 4
acti@@ 4
muzz@@ 4
vegas 4
sam@@ 4
double 4
taxis 4
scri@@ 4
mage 4
unicef 4
skinned 4
las 4
forces 4
monster 4
collection 4
electron@@ 4
prim@@ 4
artif@@ 4
dunes 4
itting 4
twi@@ 4
neck@@ 4
twister 4
ki 4
ray@@ 4
vol@@ 4
om 4
sumo 4
mo 4
baller@@ 4
fir@@ 4
hawk 4
ssing 4
intense 4
cram@@ 4
dunk 4
sent@@ 4
suppor@@ 4
fix@@ 4
fighter 4
jogg@@ 4
boston 4
explo@@ 4
rer 4
gymna@@ 4
enf@@ 4
patri@@ 4
arrang@@ 4
vel@@ 4
mac 4
horse@@ 4
short-@@ 4
prepar@@ 4
stal@@ 4
proxim@@ 4
tran@@ 4
starbucks 4
sant 4
ign@@ 4
grimac@@ 4
und 4
fine 4
oper 4
sign@@ 4
wns 4
balcon@@ 4
geish@@ 4
ebr@@ 4
id@@ 4
separ@@ 4
parasol 4
spect@@ 4
chinatown 4
mor@@ 4
ther@@ 4
chem@@ 4
drainage 4
possession 4
just@@ 3
river@@ 3
crou@@ 3
walkie 3
loun@@ 3
enti@@ 3
flambo@@ 3
yant 3
cani@@ 3
mid@@ 3
mob@@ 3
vent 3
hambur@@ 3
walk@@ 3
services 3
progra@@ 3
re 3
rectangu@@ 3
trum@@ 3
kara@@ 3
unusu@@ 3
zen 3
laces 3
12 3
anim@@ 3
tiv@@ 3
one@@ 3
ids 3
pump@@ 3
vacuum@@ 3
pharmac@@ 3
batt@@ 3
swor@@ 3
handica@@ 3
ym@@ 3
panda 3
mannequins 3
kart 3
eth@@ 3
route 3
hamburgers 3
ninj@@ 3
eless 3
spiderman 3
chev@@ 3
techn@@ 3
shin@@ 3
olo@@ 3
ttery 3
stronau@@ 3
dic@@ 3
golf@@ 3
moti@@ 3
flot@@ 3
tting 3
turbans 3
tricycles 3
ohio 3
sai@@ 3
gard@@ 3
bum 3
dojo 3
toyota 3
ov@@ 3
visit@@ 3
ro 3
pages 3
cycles 3
af@@ 3
dig@@ 3
shampo@@ 3
corn@@ 3
sils 3
formations 3
chor@@ 3
cano@@ 3
das 3
uma 3
crocodile 3
foo@@ 3
ssions 3
figur@@ 3
adul@@ 3
allow 3
latex 3
oran@@ 3
wat@@ 3
expre@@ 3
mom@@ 3
sar@@ 3
aves 3
mur@@ 3
restaur@@ 3
cles 3
suite 3
parka 3
ton 3
wii 3
of@@ 3
adolescent 3
patron 3
kni@@ 3
transport 3
trol@@ 3
iff@@ 3
session 3
ggage 3
lego 3
feat@@ 3
onloo@@ 3
ange 3
attend 3
retriever 3
ctant 3
cand@@ 3
spot@@ 3
discu@@ 3
wrest@@ 3
bom@@ 3
fs 3
zed 3
ut@@ 3
cy@@ 3
ollie 3
oed 3
kickboxing 3
itation 3
shion 3
crocs 3
pies 3
num@@ 3
impro@@ 3
vement 3
moder@@ 3
graffit@@ 3
stants 3
kitty 3
inspect@@ 3
abo@@ 3
ile 3
portraits 3
conven@@ 3
windo@@ 3
gout 3
piercings 3
coney 3
simultan@@ 3
rac@@ 3
lei 3
tiss@@ 3
spectacu@@ 3
thoscope 3
cade 3
prun@@ 3
mb 3
pop@@ 3
zombie 3
ness 3
are@@ 3
explosion 3
horizon@@ 3
bucks 3
effort 3
comm@@ 3
camer@@ 3
pony@@ 3
kly 3
haw@@ 3
sari 3
sig@@ 3
mexic@@ 3
boo@@ 3
tresses 3
audi@@ 3
costum@@ 3
vide 3
timate 3
acrobat@@ 3
leot@@ 3
scream@@ 3
umin@@ 3
lows 3
fee@@ 3
whe@@ 3
fel@@ 3
: 3
menus 3
tout 3
tutus 3
backp@@ 3
ack@@ 3
quel@@ 3
sauna 3
index 3
paintball 3
inten@@ 3
iser 3
powerpoint 3
bicyc@@ 3
ctive 3
note@@ 3
eld 3
ora@@ 3
aver@@ 3
comple@@ 3
ion 3
ambu@@ 3
lance 3
ek 3
salu@@ 3
post-@@ 3
mas 3
appla@@ 3
don 3
ponchos 3
condu@@ 3
fit@@ 3
spen@@ 3
ament 3
door@@ 3
trio 3
vin@@ 3
du 3
sque 3
gages 3
bm@@ 3
aga@@ 3
ut 3
colum@@ 3
ron@@ 3
mem@@ 3
poker 3
poncho 3
gras@@ 3
mets 3
dgers 3
fortune 3
ey@@ 3
stant 3
scienti@@ 3
long@@ 3
kne@@ 3
vice 3
ounds 3
sum@@ 3
patrio@@ 3
tum@@ 3
trouble 3
brown@@ 3
dor 3
former 3
vietnam@@ 3
oxford 3
bean@@ 3
sy@@ 3
oti@@ 3
lad@@ 3
nintendo 3
gi 3
rap@@ 3
doo 3
pause 3
rela@@ 3
tt 3
cades 3
mock 3
potat@@ 3
mariachi 3
sombrero 3
arring 3
jum@@ 3
porter 3
tuba 3
kic@@ 3
cali@@ 3
san@@ 3
50 3
bout 3
stop@@ 3
climb@@ 3
bie 3
gie 3
beauti@@ 3
well-@@ 3
stom@@ 3
pier@@ 3
titude 3
ddy 3
sexy 3
cross@@ 3
ouse 3
hollister 3
page 3
ots 3
relax@@ 3
care@@ 3
cycle 3
ach@@ 3
ritu@@ 3
scope 3
lakers 3
diver@@ 3
mag@@ 3
lev@@ 3
polit@@ 3
zombies 3
enthusi@@ 3
mart 3
focu@@ 3
tee-shirt 3
quar@@ 3
blonds 3
suspen@@ 3
bran@@ 3
incl@@ 3
ly@@ 3
track@@ 3
zo@@ 3
ees 3
gar 2
regar@@ 2
approa@@ 2
iers 2
camera@@ 2
dent 2
plan 2
ners 2
circuit 2
vari@@ 2
conne@@ 2
align@@ 2
dem@@ 2
oli@@ 2
neigh@@ 2
edly 2
vin 2
orig@@ 2
particu@@ 2
wai@@ 2
patter@@ 2
video@@ 2
bonnet 2
ances 2
phon@@ 2
spin@@ 2
aff@@ 2
diffic@@ 2
class@@ 2
situation 2
bes 2
fris@@ 2
ry-@@ 2
lent 2
possi@@ 2
mer 2
stem 2
dev@@ 2
quat@@ 2
tre 2
dame 2
eles 2
occasion 2
pel 2
sti@@ 2
incen@@ 2
trav@@ 2
caress@@ 2
percussion 2
gall@@ 2
pig@@ 2
ux 2
ston 2
erie 2
conditi@@ 2
wash@@ 2
traverse 2
ques 2
obsc@@ 2
pret@@ 2
cture 2
jama 2
harve@@ 2
ption 2
con 2
jam@@ 2
cray@@ 2
bou@@ 2
cot@@ 2
gon@@ 2
ga 2
illy 2
cho 2
capit@@ 2
cost@@ 2
teet@@ 2
secon@@ 2
chet 2
carav@@ 2
mountain@@ 2
aut@@ 2
lars 2
suc@@ 2
met 2
mal 2
ret 2
mati@@ 2
vous 2
joy@@ 2
uti@@ 2
pris 2
bes@@ 2
pane 2
bridesm@@ 2
gos 2
i-@@ 2
syn@@ 2
diti@@ 2
portant 2
rav@@ 2
nam@@ 2
cil 2
stuff@@ 2
sales 2
ath@@ 2
xing 2
bott@@ 2
ette 2
desig@@ 2
ington 2
entral 2
ave@@ 2
scaffol@@ 2
circu@@ 2
faux 2
sely 2
que 2
ton@@ 2
ha 2
inform@@ 2
instructions 2
pour 2
cle 2
rib@@ 2
distri@@ 2
esa@@ 2
cartons 2
wine@@ 2
kets 2
pays 2
parti@@ 2
jets 2
agit@@ 2
tabl@@ 2
whi@@ 2
ot@@ 2
journal 2
scu@@ 2
sweat 2
close@@ 2
,@@ 2
exerc@@ 2
internet 2
rine 2
gir@@ 2
participant 2
jou@@ 2
une 2
shor@@ 2
spa 2
respe@@ 2
challen@@ 2
men@@ 2
tech@@ 2
repair@@ 2
ried 2
bone 2
color@@ 2
paper@@ 2
ire 2
roof@@ 2
buff@@ 2
shoul@@ 2
scho@@ 2
blea@@ 2
fare 2
sph@@ 2
inged 2
rose 2
gul@@ 2
slal@@ 2
mel@@ 2
stand@@ 2
vise 2
identi@@ 2
cers 2
nel 2
veral 2
bit@@ 2
ron 2
ino 2
even@@ 2
born 2
shaw@@ 2
projection 2
tin 2
port@@ 2
gon 2
iment 2
barb@@ 2
trou@@ 2
spider@@ 2
pti@@ 2
triangle 2
ena 2
oce@@ 2
vention 2
flow@@ 2
iss@@ 2
invol@@ 2
classi@@ 2
age@@ 2
labra@@ 2
documents 2
due 2
comb@@ 2
ph 2
ensemble 2
jet@@ 2
blond-@@ 2
avi@@ 2
illumin@@ 2
isc@@ 2
velo@@ 2
ch-@@ 2
ong@@ 2
pel@@ 2
lons 2
nin@@ 2
pac@@ 2
ite@@ 2
sten@@ 2
-skinned 2
ur 2
skul@@ 2
melons 2
val@@ 2
stern 2
od@@ 2
mani@@ 2
laborat@@ 2
mau@@ 2
mine 2
chur@@ 2
mot@@ 2
ann@@ 2
` 2
dread@@ 2
cock@@ 2
aling 2
bli@@ 2
entre@@ 2
ench 2
furi@@ 2
envelo@@ 2
ore 2
% 2
citiz@@ 2
hard@@ 2
violet 2
flexi@@ 2
respecti@@ 2
brow@@ 2
check@@ 2
table@@ 2
xy@@ 2
gen 2
neu@@ 2
han@@ 2
admire 2
direct 2
cellu@@ 2
entran@@ 2
shou@@ 2
-po@@ 2
ari@@ 2
broch@@ 2
ell@@ 2
manipu@@ 2
dy@@ 2
puzz@@ 2
extra@@ 2
ordin@@ 2
boutique 2
joh@@ 2
ful@@ 2
locks 2
ai 2
acro@@ 2
nat@@ 2
ta 2
offici@@ 2
slim 2
plaque 2
lace 2
cad@@ 2
lac 2
ei@@ 2
gel 2
civ@@ 2
magi@@ 2
access@@ 2
kimon@@ 2
photo@@ 2
bandan@@ 2
oh 2
religi@@ 2
ouvre 2
cas@@ 2
cue 2
partment 2
olympi@@ 2
passer 2
plom@@ 2
ang 2
ctures 2
escal@@ 2
den 2
bystand@@ 2
zz@@ 2
gant 2
stun@@ 2
fini@@ 2
boar@@ 2
aud@@ 2
ale 2
ences 2
vie 2
oles 2
ota 2
ign 2
dribble 2
los 2
deser@@ 2
plume 2
amar@@ 2
maje@@ 2
uniform@@ 1
sup@@ 1
spec@@ 1
tree-@@ 1
lage 1
appr@@ 1
ticu@@ 1
sly 1
courts 1
rying 1
dinosau@@ 1
combin@@ 1
sul@@ 1
lins 1
ising 1
guitar@@ 1
footed 1
caban@@ 1
unes 1
isi@@ 1
mains 1
infir@@ 1
naval 1
demand@@ 1
tis 1
sous-@@ 1
fig@@ 1
rol@@ 1
wheel@@ 1
fabri@@ 1
x-@@ 1
sil 1
clou@@ 1
rect@@ 1
ket 1
inc@@ 1
shooter 1
ening 1
gies 1
wel 1
casserole 1
chall@@ 1
bas 1
etting 1
lux@@ 1
stoo@@ 1
scriptions 1
igh@@ 1
teen@@ 1
contra@@ 1
polos 1
spectat@@ 1
ond@@ 1
adolesc@@ 1
hawai@@ 1
ghter 1
immense 1
touri@@ 1
hula@@ 1
yar@@ 1
ille 1
venir 1
euro@@ 1
alie 1
hors 1
&apos;@@ 1
oeu@@ 1
vres 1
motif 1
ben@@ 1
attle 1
grave@@ 1
tomb@@ 1
g-@@ 1
trib@@ 1
suring 1
rette 1
chal@@ 1
ou 1
attemp@@ 1
soon@@ 1
footbal@@ 1
sible 1
mol@@ 1
distribu@@ 1
bies 1
che 1
countr@@ 1
aspir@@ 1
get@@ 1
tooth@@ 1
inspec@@ 1
canon 1
ne 1
pizzeria 1
silhouettes 1
inst@@ 1
cup@@ 1
bonnets 1
bal 1
au 1
bon 1
urer 1
sine 1
alle@@ 1
quo@@ 1
court@@ 1
label@@ 1
accordi@@ 1
peu@@ 1
dow 1
una 1
gue 1
bbing 1
public@@ 1
bermu@@ 1
stes 1
agricul@@ 1
spr@@ 1
mal@@ 1
urs 1
toboggan 1
aids 1
sa 1
brand@@ 1
mans 1
indu@@ 1
power@@ 1
cket 1
bikin@@ 1
sombrer@@ 1
ima@@ 1
mill 1
bik@@ 1
res 1
flor@@ 1
sax@@ 1
zzy 1
sous 1
univer@@ 1
comman@@ 1
pizz@@ 1
panoram@@ 1
aband@@ 1
butter@@ 1
laugh@@ 1
thum@@ 1
mit@@ 1
monit@@ 1
tritus 1
flan@@ 1
busin@@ 1
ane 1
social@@ 1
shir@@ 1
ggy 1
ere 1
mousta@@ 1
musc@@ 1
raf@@ 1
uri@@ 1
deo 1
ffe@@ 1
yh@@ 1
rayed 1
sav@@ 1
labrador 1
sang 1
client 1
casque 1
oire 1
ader 1
ballons 1
outf@@ 1
nu 1
heav@@ 1
sson 1
squee@@ 1
habit@@ 1
twe@@ 1
iler 1
ree 1
craf@@ 1
swee@@ 1
rent 1
itude 1
perform@@ 1
practi@@ 1
grimaces 1
mic@@ 1
pist@@ 1
colo@@ 1
esp@@ 1
volley 1
bed@@ 1
red@@ 1
gars 1
lared 1
vette 1
attractions 1
snea@@ 1
cated 1
perple@@ 1
bass@@ 1
lau@@ 1
again@@ 1
fighters 1
ours 1
pian@@ 1
crav@@ 1
passage 1
carton 1
eg@@ 1
ferm@@ 1
entation 1
riers 1
tens 1
dwalk 1
drome 1
outi@@ 1
impre@@ 1
sque@@ 1
kaki 1
ffe 1
py@@ 1
xylo@@ 1
skate@@ 1
tux@@ 1
auto 1
centre 1
ever@@ 1
automob@@ 1
bers 1
vir@@ 1
ffect@@ 1
ope 1
mach@@ 1
chu 1
flops 1
loy@@ 1
toa@@ 1
new@@ 1
mout@@ 1
pho@@ 1
ix 1
ices 1
bask@@ 1
chine 1
allu@@ 1
fau@@ 1
q@@ 1
situ@@ 1
numer@@ 1
oking 1
tele@@ 1
eur 1
milit@@ 1
rand@@ 1
idi@@ 1
hosp@@ 1
chute 1
shop@@ 1
sham@@ 1
dying 1
eurs 1
demo@@ 1
tread@@ 1
nie 1
shirt@@ 1
performan@@ 1
shepher@@ 1
borne 1
dump@@ 1
comp@@ 1
congre@@ 1
pelo@@ 1
si 1
roll@@ 1
visi@@ 1
pav@@ 1
ban 1
ades 1
wom@@ 1
ole 1
custom@@ 1
mignon 1
grav@@ 1
enou@@ 1
ez 1
enta@@ 1
tam@@ 1
di 1
nage 1
parall@@ 1
chemise 1
papa 1
bene@@ 1
gray@@ 1
ricksha@@ 1
fai@@ 1
after@@ 1
ac 1
produ@@ 1
masculine 1
tai@@ 1
resque 1
coupe 1
adverti@@ 1
pital 1
squat@@ 1
autom@@ 1
7@@ 1
gent@@ 1
dure 1
unicyc@@ 1
ide 1
invisible 1
anniver@@ 1
ain@@ 1
supporters 1
tom@@ 1
bracel@@ 1
les@@ 1
clar@@ 1
bub@@ 1
concre@@ 1
te-@@ 1
$ 1
brun@@ 1
tale 1
bras 1
spee@@ 1
traver@@ 1
vert 1
cep@@ 1
kar@@ 1
dio 1
enth@@ 1
aven@@ 1
entr@@ 1
yway 1
bronz@@ 1
ee 1
caucasi@@ 1
bas-@@ 1
reli@@ 1
dit 1
restau@@ 1
orient 1
ir 1
pay@@ 1
cathe@@ 1
tory 1
articles 1
oph@@ 1
asi@@ 1
with@@ 1
accom@@ 1
mod@@ 1
gun@@ 1
observ@@ 1
serv@@ 1
ory 1
marine 1
iting 1
desser@@ 1
by@@ 1
lif@@ 1
nis 1
dale 1
esc@@ 1
volle@@ 1
sole@@ 1
ength 1
charge 1
inent 1
loin 1
gile 1
fou@@ 1
jer@@ 1
maine 1
mc@@ 1
esse 1
establi@@ 1
peloton 1
mering 1
musi@@ 1
pos 1
shment 1
bols 1
chalk@@ 1
shing@@ 1
filets 1
mp@@ 1
trace 1
ait 1
exer@@ 1
fon@@ 1
wheelbar@@ 1
din 1
smil@@ 1
protection 1
hispan@@ 1
cow@@ 1
exhi@@ 1
enter@@ 1
fume 1
plying 1
gency 1
stil@@ 1
document 1
synchron@@ 1
sac 1
harmon@@ 1
cass@@ 1
onne 1
binocu@@ 1
gne 1
urg@@ 1
fum@@ 1
quarter@@ 1
rollers 1
grat@@ 1
journal@@ 1
za 1
ssive 1
ry@@ 1
acked 1
liqui@@ 1
donal@@ 1
illo@@ 1
tte 1
ish@@ 1
arro@@ 1
par 1
chats 1
yc@@ 1
chin@@ 1
vel 1
adolescents 1
quette 1
verse 1
chap@@ 1
shoot@@ 1
sch@@ 1
differ@@ 1
coin 1
rece@@ 1
tram@@ 1
cour@@ 1
gratu@@ 1
midd@@ 1
mono@@ 1
bulldo@@ 1
transpor@@ 1
asse 1
inju@@ 1
obstacles 1
cuit 1
seu@@ 1
brit@@ 1
athle@@ 1
cation 1
argent@@ 1
del@@ 1
concer@@ 1
spra@@ 1
may@@ 1
pics 1
auto@@ 1
conc@@ 1
vit@@ 1
tron@@ 1
leur 1
cham@@ 1
plumes 1
cuisine 1
= 1
tos 1
de-@@ 1
yer 1
sembl@@ 1
pe-@@ 1
